#include "fire_data.h"

ai_handle ai_fire_data_weights_get(void)
{

  AI_ALIGNED(4)
  static const ai_u8 s_fire_weights[ 356 ] = {
    0xc9, 0xf6, 0x97, 0x3f, 0x8f, 0xd2, 0xbb, 0xbe, 0xc7, 0x6a,
    0x5c, 0xbe, 0x75, 0xa5, 0x5e, 0xbe, 0x9f, 0x7b, 0xcc, 0x3e,
    0xa0, 0x28, 0x46, 0x3f, 0xf1, 0x89, 0x19, 0xbf, 0xb4, 0xee,
    0x7a, 0xbd, 0x67, 0x81, 0x81, 0x3e, 0x9d, 0xe1, 0x0f, 0xbf,
    0xc5, 0x3c, 0x87, 0x3f, 0xc7, 0x38, 0x3d, 0x3f, 0x91, 0x09,
    0xe6, 0x3e, 0x65, 0x09, 0x04, 0xbf, 0x8e, 0x52, 0xcf, 0xbe,
    0x18, 0x53, 0x10, 0xbf, 0x3c, 0xfc, 0x0a, 0xbd, 0xa0, 0xb9,
    0x6d, 0x3f, 0xef, 0x8b, 0x8b, 0x3f, 0x51, 0xa4, 0x52, 0x3f,
    0xf4, 0x2f, 0xb5, 0xbe, 0xe4, 0x3e, 0x9c, 0x3f, 0xa5, 0xf6,
    0x9e, 0x3e, 0x89, 0x05, 0x48, 0xbf, 0xc7, 0x85, 0xd0, 0xbd,
    0x99, 0x5f, 0x85, 0x3d, 0x35, 0xc8, 0x0d, 0xbd, 0x78, 0xa1,
    0xb7, 0x3d, 0xb1, 0x31, 0x26, 0xbe, 0x2c, 0x9c, 0x0d, 0x3e,
    0x92, 0x3d, 0x87, 0x3e, 0x89, 0xe4, 0x2c, 0x3d, 0x72, 0x88,
    0x43, 0xbf, 0x38, 0xe3, 0x8c, 0x3f, 0xb0, 0x30, 0x31, 0x3f,
    0x3b, 0x08, 0xa7, 0x3f, 0x2f, 0xac, 0x09, 0xbe, 0x57, 0xb0,
    0xbf, 0x3f, 0x82, 0xe7, 0xf4, 0xbd, 0xd4, 0xa7, 0x49, 0xbf,
    0x37, 0xde, 0x06, 0x3f, 0xf0, 0xa1, 0xe8, 0x3d, 0x96, 0xcc,
    0xb7, 0xbe, 0xd5, 0xf4, 0xdc, 0xbe, 0xdb, 0x4d, 0xb6, 0x3e,
    0xa9, 0x3c, 0x54, 0xbf, 0x6f, 0xbb, 0x93, 0x3e, 0x4d, 0x79,
    0xc8, 0x3e, 0x30, 0xcb, 0x91, 0xbf, 0xf4, 0x09, 0x55, 0x3f,
    0x1c, 0x94, 0x15, 0xbf, 0x76, 0x0b, 0x30, 0x3f, 0x3c, 0x85,
    0xf2, 0x3c, 0x14, 0x1a, 0x50, 0x3f, 0xf4, 0xc4, 0x31, 0x3e,
    0x14, 0x75, 0xb6, 0xbe, 0xed, 0x40, 0x40, 0x3f, 0xd5, 0x59,
    0x22, 0xbf, 0x11, 0x00, 0xce, 0x3e, 0x90, 0x40, 0x1a, 0xbf,
    0x68, 0xfe, 0x98, 0xbe, 0x19, 0x6d, 0xaf, 0xbf, 0xa7, 0xd6,
    0x09, 0x3f, 0x1d, 0x13, 0xb6, 0x3f, 0xf8, 0x84, 0xc7, 0xbd,
    0x78, 0x33, 0x42, 0xbe, 0x10, 0x32, 0xf2, 0xbe, 0xa8, 0xa5,
    0xb5, 0x3e, 0xc0, 0x49, 0x73, 0x3d, 0xef, 0x94, 0xf5, 0xbe,
    0xc8, 0x6e, 0xc6, 0xbe, 0x7d, 0xed, 0xa7, 0xbe, 0x01, 0x51,
    0x62, 0x3e, 0x7b, 0x2c, 0xdc, 0x3d, 0xcd, 0x38, 0x83, 0x3d,
    0xe4, 0x6f, 0x16, 0x3e, 0x00, 0x00, 0x00, 0x00, 0x5e, 0xf0,
    0xbe, 0xbf, 0xa3, 0x07, 0x8e, 0x3e, 0xfc, 0xa7, 0xe8, 0xbf,
    0xe8, 0x43, 0xca, 0x3f, 0xb2, 0xf7, 0xb6, 0xbe, 0xd0,
    0x92, 0xe6, 0x3f, 0x10, 0x57, 0x49, 0xbf, 0x93, 0xd9,
    0x7a, 0x3f, 0x86, 0xfd, 0xd0, 0xbf, 0xfd, 0x48, 0x0e,
    0xbf, 0xdb, 0xbb, 0x2b, 0x3d, 0xdb, 0xbb, 0x2b, 0xbd
  };

  return AI_HANDLE_PTR(s_fire_weights);

}

